#pragma once
#include <stdint.h>

alignas(16) const unsigned char mnist_cnn_int8_model[] = {
  0x1c, 0x00, 0x00, 0x00, 0x54, 0x46, 0x4c, 0x33, 0x14, 0x00, 0x20, 0x00,
  0x1c, 0x00, 0x18, 0x00, 0x14, 0x00, 0x10, 0x00, 0x0c, 0x00, 0x00, 0x00,
  0x08, 0x00, 0x04, 0x00, 0x14, 0x00, 0x00, 0x00, 0x1c, 0x00, 0x00, 0x00,
  0x98, 0x00, 0x00, 0x00, 0x18, 0x01, 0x00, 0x00, 0x68, 0x08, 0x00, 0x00,
  0x78, 0x08, 0x00, 0x00, 0xf4, 0x13, 0x00, 0x00, 0x03, 0x00, 0x00, 0x00,
  0x01, 0x00, 0x00, 0x00, 0x10, 0x00, 0x00, 0x00, 0x00, 0x00, 0x0a, 0x00,
  0x10, 0x00, 0x0c, 0x00, 0x08, 0x00, 0x04, 0x00, 0x0a, 0x00, 0x00, 0x00,
  0x0c, 0x00, 0x00, 0x00, 0x1c, 0x00, 0x00, 0x00, 0x3c, 0x00, 0x00, 0x00,
  0x0f, 0x00, 0x00, 0x00, 0x73, 0x65, 0x72, 0x76, 0x69, 0x6e, 0x67, 0x5f,
  0x64, 0x65, 0x66, 0x61, 0x75, 0x6c, 0x74, 0x00, 0x01, 0x00, 0x00, 0x00,
  0x04, 0x00, 0x00, 0x00, 0x68, 0xff, 0xff, 0xff, 0x0c, 0x00, 0x00, 0x00,
  0x04, 0x00, 0x00, 0x00, 0x08, 0x00, 0x00, 0x00, 0x6f, 0x75, 0x74, 0x70,
  0x75, 0x74, 0x5f, 0x30, 0x00, 0x00, 0x00, 0x00, 0x01, 0x00, 0x00, 0x00,
  0x04, 0x00, 0x00, 0x00, 0x8a, 0xf7, 0xff, 0xff, 0x04, 0x00, 0x00, 0x00,
  0x0c, 0x00, 0x00, 0x00, 0x6b, 0x65, 0x72, 0x61, 0x73, 0x5f, 0x74, 0x65,
  0x6e, 0x73, 0x6f, 0x72, 0x00, 0x00, 0x00, 0x00, 0x03, 0x00, 0x00, 0x00,
  0x5c, 0x00, 0x00, 0x00, 0x2c, 0x00, 0x00, 0x00, 0x04, 0x00, 0x00, 0x00,
  0xb8, 0xff, 0xff, 0xff, 0x10, 0x00, 0x00, 0x00, 0x04, 0x00, 0x00, 0x00,
  0x13, 0x00, 0x00, 0x00, 0x43, 0x4f, 0x4e, 0x56, 0x45, 0x52, 0x53, 0x49,
  0x4f, 0x4e, 0x5f, 0x4d, 0x45, 0x54, 0x41, 0x44, 0x41, 0x54, 0x41, 0x00,
  0xdc, 0xff, 0xff, 0xff, 0x0f, 0x00, 0x00, 0x00, 0x04, 0x00, 0x00, 0x00,
  0x13, 0x00, 0x00, 0x00, 0x6d, 0x69, 0x6e, 0x5f, 0x72, 0x75, 0x6e, 0x74,
  0x69, 0x6d, 0x65, 0x5f, 0x76, 0x65, 0x72, 0x73, 0x69, 0x6f, 0x6e, 0x00,
  0x08, 0x00, 0x0c, 0x00, 0x08, 0x00, 0x04, 0x00, 0x08, 0x00, 0x00, 0x00,
  0x0e, 0x00, 0x00, 0x00, 0x04, 0x00, 0x00, 0x00, 0x13, 0x00, 0x00, 0x00,
  0x6d, 0x69, 0x6e, 0x5f, 0x72, 0x75, 0x6e, 0x74, 0x69, 0x6d, 0x65, 0x5f,
  0x76, 0x65, 0x72, 0x73, 0x69, 0x6f, 0x6e, 0x00, 0x11, 0x00, 0x00, 0x00,
  0x4c, 0x07, 0x00, 0x00, 0x44, 0x07, 0x00, 0x00, 0x2c, 0x07, 0x00, 0x00,
  0xf4, 0x06, 0x00, 0x00, 0x44, 0x06, 0x00, 0x00, 0xf4, 0x05, 0x00, 0x00,
  0x64, 0x01, 0x00, 0x00, 0x34, 0x01, 0x00, 0x00, 0xdc, 0x00, 0x00, 0x00,
  0xd4, 0x00, 0x00, 0x00, 0xcc, 0x00, 0x00, 0x00, 0xc4, 0x00, 0x00, 0x00,
  0xbc, 0x00, 0x00, 0x00, 0xb4, 0x00, 0x00, 0x00, 0x94, 0x00, 0x00, 0x00,
  0x74, 0x00, 0x00, 0x00, 0x04, 0x00, 0x00, 0x00, 0x72, 0xf8, 0xff, 0xff,
  0x04, 0x00, 0x00, 0x00, 0x60, 0x00, 0x00, 0x00, 0x0c, 0x00, 0x00, 0x00,
  0x08, 0x00, 0x0e, 0x00, 0x08, 0x00, 0x04, 0x00, 0x08, 0x00, 0x00, 0x00,
  0x10, 0x00, 0x00, 0x00, 0x28, 0x00, 0x00, 0x00, 0x00, 0x00, 0x06, 0x00,
  0x08, 0x00, 0x04, 0x00, 0x06, 0x00, 0x00, 0x00, 0x04, 0x00, 0x00, 0x00,
  0x01, 0x00, 0x00, 0x00, 0xeb, 0x03, 0x00, 0x00, 0x0c, 0x00, 0x18, 0x00,
  0x14, 0x00, 0x10, 0x00, 0x0c, 0x00, 0x04, 0x00, 0x0c, 0x00, 0x00, 0x00,
  0xbd, 0x5d, 0xeb, 0x8d, 0x91, 0xba, 0xc2, 0x45, 0x02, 0x00, 0x00, 0x00,
  0x02, 0x00, 0x00, 0x00, 0x04, 0x00, 0x00, 0x00, 0x06, 0x00, 0x00, 0x00,
  0x32, 0x2e, 0x31, 0x39, 0x2e, 0x30, 0x00, 0x00, 0xde, 0xf8, 0xff, 0xff,
  0x04, 0x00, 0x00, 0x00, 0x10, 0x00, 0x00, 0x00, 0x00, 0x00, 0x00, 0x00,
  0x00, 0x00, 0x00, 0x00, 0x00, 0x00, 0x00, 0x00, 0x00, 0x00, 0x00, 0x00,
  0xfa, 0xf8, 0xff, 0xff, 0x04, 0x00, 0x00, 0x00, 0x10, 0x00, 0x00, 0x00,
  0x31, 0x2e, 0x31, 0x34, 0x2e, 0x30, 0x00, 0x00, 0x00, 0x00, 0x00, 0x00,
  0x00, 0x00, 0x00, 0x00, 0xd8, 0xee, 0xff, 0xff, 0xdc, 0xee, 0xff, 0xff,
  0xe0, 0xee, 0xff, 0xff, 0xe4, 0xee, 0xff, 0xff, 0xe8, 0xee, 0xff, 0xff,
  0x2a, 0xf9, 0xff, 0xff, 0x04, 0x00, 0x00, 0x00, 0x48, 0x00, 0x00, 0x00,
  0x81, 0x01, 0x59, 0x93, 0x24, 0x58, 0xa1, 0x1d, 0x27, 0x18, 0xed, 0x04,
  0x65, 0x49, 0x5d, 0x7f, 0x6b, 0x7f, 0x24, 0x50, 0x52, 0x01, 0x1f, 0x21,
  0x8e, 0x81, 0xdd, 0x75, 0x75, 0x7f, 0x1f, 0x21, 0x3a, 0xd7, 0xe1, 0x10,
  0x19, 0x57, 0x64, 0x06, 0x4f, 0x49, 0x81, 0xc2, 0xd0, 0x29, 0x81, 0x97,
  0x36, 0x86, 0x56, 0xab, 0xac, 0x2e, 0x2c, 0xfd, 0x0a, 0x51, 0x35, 0x41,
  0x60, 0x65, 0x7f, 0x7f, 0x61, 0x5f, 0x49, 0x39, 0x2e, 0x2c, 0x27, 0x1b,
  0x7e, 0xf9, 0xff, 0xff, 0x04, 0x00, 0x00, 0x00, 0x20, 0x00, 0x00, 0x00,
  0x81, 0x2f, 0x00, 0x00, 0xf9, 0xff, 0xff, 0xff, 0x2e, 0x0c, 0x00, 0x00,
  0xfe, 0xff, 0xff, 0xff, 0x5c, 0x81, 0x00, 0x00, 0xf0, 0x38, 0x00, 0x00,
  0xf9, 0xff, 0xff, 0xff, 0xdf, 0xff, 0xff, 0xff, 0xaa, 0xf9, 0xff, 0xff,
  0x04, 0x00, 0x00, 0x00, 0x80, 0x04, 0x00, 0x00, 0xef, 0x0c, 0x2a, 0x02,
  0x0d, 0x08, 0x11, 0x06, 0x12, 0x22, 0xdb, 0xea, 0x09, 0x0e, 0x0d, 0xf4,
  0x17, 0x11, 0xc1, 0xda, 0x0c, 0x1e, 0xfb, 0xe2, 0x00, 0xfc, 0x16, 0x00,
  0x0d, 0x06, 0xfc, 0xf5, 0x09, 0xef, 0x06, 0x12, 0x0e, 0x06, 0xf9, 0x10,
  0x12, 0xb8, 0xeb, 0xd4, 0x0f, 0x16, 0xca, 0xd1, 0x22, 0x81, 0x31, 0x12,
  0x26, 0x20, 0xa9, 0xdc, 0x20, 0x95, 0x15, 0xfe, 0x1b, 0x26, 0xab, 0xd9,
  0x27, 0xa8, 0x28, 0xe1, 0x27, 0x2f, 0xb3, 0xc2, 0xeb, 0x15, 0x2f, 0x0b,
  0xf3, 0xec, 0x01, 0x12, 0xd3, 0x0b, 0x14, 0x04, 0xf5, 0xa6, 0x1b, 0x1d,
  0x05, 0x01, 0x3b, 0x0b, 0x05, 0xef, 0x0c, 0x04, 0xe7, 0x0b, 0x7f, 0x0a,
  0x09, 0xd6, 0x0d, 0xfe, 0xdb, 0x0e, 0x6c, 0x16, 0xfb, 0x9d, 0x12, 0x1b,
  0x06, 0x0c, 0x6e, 0x01, 0x0a, 0xfc, 0x00, 0x0f, 0x0c, 0xef, 0x25, 0x0e,
  0x13, 0x33, 0x07, 0x01, 0x03, 0x0d, 0x2e, 0x12, 0x12, 0x08, 0xf5, 0x12,
  0x2a, 0x0c, 0x26, 0xff, 0x22, 0x55, 0xf3, 0x0b, 0xf6, 0x0e, 0x83, 0xe3,
  0xfd, 0x06, 0xff, 0xef, 0xfb, 0x0d, 0x81, 0xd6, 0xf8, 0x0e, 0xfc, 0xee,
  0xeb, 0xf6, 0xb1, 0xe2, 0xf7, 0x13, 0xed, 0xf0, 0x0b, 0x14, 0xeb, 0x12,
  0x18, 0x0d, 0x16, 0x14, 0xff, 0x0e, 0xed, 0x0f, 0x10, 0x00, 0x19, 0x1a,
  0xf0, 0x13, 0x04, 0x05, 0x0a, 0x07, 0x0f, 0x05, 0x1e, 0xdf, 0x27, 0x06,
  0x20, 0x2c, 0xe4, 0xfa, 0x12, 0xe3, 0x36, 0x0c, 0x1e, 0x18, 0xe1, 0xfa,
  0x24, 0xed, 0x3f, 0x0e, 0x28, 0x2f, 0xfb, 0x04, 0x11, 0xd0, 0xa2, 0x9d,
  0xfc, 0x1d, 0xd1, 0xaa, 0x0b, 0x0a, 0xa8, 0xb1, 0xf8, 0x0c, 0x05, 0xdb,
  0x02, 0x19, 0x00, 0xf6, 0xf8, 0xfd, 0x16, 0xfd, 0x28, 0xc1, 0xf4, 0xfb,
  0x08, 0x0b, 0xcd, 0xd3, 0xfc, 0x18, 0xff, 0x13, 0x07, 0x09, 0x1d, 0x1c,
  0x06, 0x16, 0x2e, 0x1f, 0xfd, 0xf6, 0x1c, 0x17, 0x2c, 0xc3, 0x2d, 0xe1,
  0x13, 0x15, 0xb6, 0xc8, 0x10, 0x9e, 0x7f, 0x43, 0x26, 0x13, 0xc1, 0x08,
  0xef, 0x9e, 0x40, 0x0c, 0x1c, 0x03, 0xba, 0xef, 0x17, 0x15, 0x89, 0x01,
  0x13, 0x1f, 0x0f, 0xf1, 0xee, 0x23, 0x8f, 0x10, 0x06, 0x01, 0x23, 0x14,
  0xd5, 0x20, 0xfa, 0xef, 0xec, 0xff, 0x04, 0xef, 0x14, 0xdb, 0x21, 0xf4,
  0x23, 0xf9, 0xe4, 0xe5, 0xf0, 0xf5, 0x57, 0x1d, 0x1e, 0xe9, 0xf8, 0x07,
  0xd9, 0x0d, 0x62, 0x19, 0x20, 0xc2, 0xff, 0xff, 0x3f, 0x03, 0xc9, 0xb4,
  0x0e, 0x35, 0x03, 0xc9, 0x3b, 0x16, 0x81, 0xb0, 0x06, 0x38, 0x10, 0xcd,
  0x18, 0x0d, 0x89, 0xc8, 0x13, 0x47, 0xfb, 0xdf, 0x28, 0xfe, 0x14, 0x06,
  0x25, 0xff, 0xff, 0xfa, 0x61, 0xe8, 0x49, 0xf3, 0x21, 0x1b, 0xf0, 0xef,
  0x28, 0x09, 0x0a, 0xf7, 0x07, 0x06, 0x0a, 0xf3, 0x2c, 0x08, 0x1b, 0x20,
  0x10, 0x0e, 0x17, 0x05, 0x4f, 0x03, 0x37, 0x03, 0x19, 0x15, 0xf6, 0x03,
  0x3b, 0xfc, 0x2c, 0x0e, 0x19, 0x1b, 0x17, 0x05, 0x3f, 0x01, 0x18, 0x0b,
  0x1d, 0xfd, 0xfb, 0xf9, 0x7f, 0xee, 0x4b, 0xf1, 0x0e, 0x14, 0xff, 0xfb,
  0x26, 0xff, 0x13, 0xfe, 0x24, 0x17, 0x0b, 0xef, 0xeb, 0xf3, 0x0c, 0xe7,
  0x06, 0xf8, 0xf1, 0xf0, 0x12, 0x0a, 0xe4, 0x05, 0x11, 0x0c, 0xfd, 0x00,
  0x24, 0x1c, 0xf3, 0x1a, 0x1a, 0x20, 0x22, 0x29, 0x03, 0xcd, 0xff, 0x06,
  0x11, 0x05, 0xe4, 0xea, 0x0d, 0x0c, 0x9a, 0x2e, 0x14, 0x24, 0x10, 0x0d,
  0x2d, 0x01, 0xac, 0x0c, 0x17, 0x33, 0x02, 0x15, 0x27, 0xda, 0xb1, 0xe3,
  0x0c, 0x19, 0xe6, 0xbe, 0x1c, 0x28, 0x81, 0x1b, 0x0c, 0x16, 0x1a, 0x13,
  0x28, 0xdc, 0x8d, 0xe1, 0x09, 0x43, 0xe8, 0xef, 0xe9, 0x0b, 0x4c, 0x11,
  0x0e, 0xed, 0x08, 0x0c, 0x15, 0x15, 0x4b, 0x10, 0x17, 0xdc, 0x08, 0x0b,
  0xec, 0x0e, 0x4e, 0x10, 0x0f, 0xe9, 0xfb, 0x07, 0xe5, 0xf8, 0x54, 0xf8,
  0x0b, 0xe1, 0xfb, 0xef, 0x16, 0xf0, 0x7f, 0x00, 0x04, 0xd1, 0x00, 0x03,
  0xee, 0xef, 0x69, 0xfa, 0xfb, 0xdc, 0xf9, 0xf3, 0xe6, 0x09, 0x3f, 0x06,
  0x06, 0xe8, 0x0a, 0x0d, 0x1b, 0x0c, 0x51, 0x09, 0x03, 0xd6, 0x14, 0x09,
  0xf1, 0x13, 0x42, 0x15, 0x08, 0xe5, 0x12, 0x01, 0xf9, 0xfe, 0x4a, 0x27,
  0x1a, 0xf8, 0x01, 0x17, 0xf9, 0x04, 0x73, 0x0c, 0xf9, 0xda, 0x00, 0xfa,
  0x07, 0x17, 0x4a, 0x2c, 0x1c, 0xee, 0x13, 0x11, 0xe8, 0x19, 0x77, 0x09,
  0xf5, 0xea, 0x14, 0xfd, 0x00, 0x16, 0x6f, 0xe9, 0xfc, 0xe5, 0x02, 0xf1,
  0xf4, 0x15, 0x70, 0x15, 0x0b, 0xef, 0x08, 0x0c, 0xee, 0xfb, 0x49, 0x1f,
  0x13, 0xf2, 0x14, 0x1e, 0x09, 0xfd, 0x7f, 0x0e, 0x0d, 0xeb, 0xfe, 0xf5,
  0xf2, 0xfa, 0x3b, 0x2d, 0x19, 0xfa, 0x04, 0x1b, 0x20, 0x02, 0x3e, 0xf9,
  0x23, 0x04, 0xff, 0x04, 0x5c, 0xeb, 0x66, 0xfb, 0x13, 0x0f, 0xec, 0x02,
  0x32, 0xf6, 0x4e, 0xf3, 0x13, 0x03, 0x00, 0x02, 0x25, 0x07, 0x53, 0xfa,
  0x1d, 0x10, 0x16, 0x0c, 0x55, 0xfb, 0x7f, 0xfc, 0x1c, 0x05, 0x0c, 0x04,
  0x2d, 0x0a, 0x5d, 0x05, 0x0c, 0x0d, 0xfa, 0x07, 0x27, 0xf7, 0x3a, 0xfe,
  0x0f, 0x00, 0xff, 0x00, 0x62, 0xeb, 0x64, 0xff, 0x16, 0x06, 0x03, 0x01,
  0x21, 0x06, 0x4e, 0x04, 0x1e, 0x04, 0xf8, 0xf4, 0x00, 0x29, 0xb3, 0x1e,
  0x05, 0xf2, 0x35, 0x1c, 0x2b, 0x0a, 0xd5, 0xe0, 0x07, 0x0b, 0x2b, 0x0b,
  0x08, 0xca, 0x1e, 0x9d, 0x07, 0xf4, 0xc3, 0xbc, 0x21, 0x46, 0x1e, 0x47,
  0x28, 0x09, 0x48, 0x51, 0x1f, 0x41, 0xde, 0x44, 0x0b, 0x0d, 0x59, 0x61,
  0xda, 0xf6, 0x81, 0x92, 0xeb, 0x08, 0xcf, 0xbc, 0x37, 0x23, 0x0a, 0x25,
  0x07, 0xeb, 0x20, 0x27, 0x1f, 0x31, 0x3a, 0x2b, 0x1d, 0xe2, 0x2b, 0x4d,
  0xcc, 0xb1, 0x60, 0xbe, 0x0f, 0x11, 0xac, 0xbf, 0x2e, 0x30, 0xaf, 0x39,
  0x00, 0x07, 0x24, 0x43, 0x0a, 0x33, 0x04, 0x4c, 0x13, 0x06, 0x2c, 0x53,
  0xd8, 0xeb, 0x1b, 0xf7, 0xef, 0x0e, 0x08, 0x11, 0x2d, 0x16, 0x84, 0x1c,
  0x06, 0x06, 0x19, 0x1a, 0x00, 0x08, 0xa6, 0x12, 0x03, 0x0f, 0x17, 0x11,
  0xfc, 0xeb, 0xa0, 0xe4, 0xe3, 0xff, 0xf8, 0xe6, 0x2d, 0x12, 0xad, 0xfd,
  0xf6, 0x24, 0xfb, 0x03, 0x05, 0xc8, 0xe0, 0xf2, 0x0a, 0x25, 0xd2, 0xd8,
  0x0d, 0x98, 0xd8, 0x95, 0x04, 0x26, 0xa0, 0x81, 0x0a, 0xf3, 0x08, 0x81,
  0xec, 0xf1, 0xee, 0xbb, 0xed, 0xfb, 0x3a, 0xcc, 0xfd, 0xff, 0xf5, 0xe5,
  0xea, 0xe6, 0x60, 0xa9, 0xfa, 0xfe, 0xe7, 0xd3, 0xd8, 0x07, 0x5b, 0x10,
  0x22, 0xee, 0x07, 0x07, 0xd9, 0xfc, 0x6f, 0x11, 0x2b, 0xe9, 0x05, 0x07,
  0xcb, 0xfd, 0x5a, 0x03, 0x24, 0xe6, 0xfe, 0xff, 0xe0, 0x0b, 0x34, 0xfa,
  0xfc, 0xc5, 0x09, 0xfe, 0xc4, 0x0c, 0x36, 0xff, 0xf9, 0x87, 0x0b, 0x02,
  0xe1, 0x15, 0x4f, 0x03, 0xfe, 0x95, 0x14, 0x09, 0x3e, 0xc9, 0xef, 0xda,
  0x0b, 0x2a, 0xd5, 0xcb, 0x16, 0x4a, 0xfc, 0x17, 0x12, 0x13, 0x40, 0x1b,
  0x03, 0x37, 0x3f, 0x3b, 0x1c, 0x03, 0x41, 0x33, 0x37, 0x92, 0xeb, 0xd2,
  0x10, 0x0d, 0xa0, 0xa3, 0x00, 0x13, 0x14, 0x22, 0x09, 0x0d, 0x10, 0x2c,
  0xea, 0x85, 0x1d, 0xef, 0xff, 0x0f, 0xae, 0xe1, 0x1d, 0xab, 0x0f, 0x17,
  0x0d, 0x06, 0x9b, 0xca, 0x0a, 0xa5, 0x1d, 0xcb, 0x12, 0x13, 0xba, 0xb3,
  0xf9, 0x1c, 0xc2, 0x81, 0xe9, 0x07, 0x09, 0xb7, 0x3b, 0xfa, 0xe5, 0x00,
  0x00, 0x20, 0x07, 0xfd, 0x5b, 0xff, 0x09, 0xe7, 0xfb, 0x25, 0x06, 0xf2,
  0x31, 0x00, 0xdc, 0x00, 0x16, 0x32, 0x10, 0x03, 0x1a, 0x14, 0x3b, 0x25,
  0x10, 0x20, 0x1e, 0x1a, 0x60, 0x0e, 0x47, 0x1b, 0x19, 0x1c, 0x0b, 0x28,
  0x37, 0x25, 0x38, 0x11, 0x2a, 0x16, 0x0c, 0x1f, 0x3e, 0x00, 0xdb, 0xee,
  0x11, 0x27, 0xfe, 0xef, 0x7f, 0x01, 0xf8, 0xef, 0x04, 0x26, 0x01, 0xea,
  0x37, 0x0a, 0xe2, 0xdb, 0x14, 0x2e, 0xf5, 0x05, 0xb2, 0xfd, 0x49, 0x0d,
  0x06, 0xc7, 0x05, 0x0b, 0xd1, 0x03, 0x23, 0x09, 0xfc, 0xc3, 0x03, 0x0b,
  0xeb, 0x03, 0x27, 0x11, 0x00, 0xc6, 0x09, 0x0f, 0xd8, 0xfe, 0x07, 0x03,
  0xf7, 0xe7, 0x06, 0x00, 0xdf, 0x0c, 0x01, 0x0c, 0xf5, 0xea, 0x11, 0x07,
  0xda, 0xf9, 0xf0, 0xfc, 0xf0, 0xf3, 0xfe, 0xfd, 0x3b, 0xb3, 0x52, 0xf8,
  0x3c, 0x2b, 0xc3, 0xd9, 0x30, 0xbd, 0x33, 0xfe, 0x33, 0x32, 0xd1, 0xec,
  0x20, 0x81, 0x36, 0xe7, 0x2a, 0x33, 0x8e, 0xdc, 0x36, 0xfe, 0xff, 0xff,
  0x04, 0x00, 0x00, 0x00, 0x40, 0x00, 0x00, 0x00, 0x72, 0x00, 0x00, 0x00,
  0x16, 0xff, 0xff, 0xff, 0x78, 0x00, 0x00, 0x00, 0x2d, 0x00, 0x00, 0x00,
  0x82, 0x00, 0x00, 0x00, 0x29, 0x01, 0x00, 0x00, 0x3e, 0x00, 0x00, 0x00,
  0x88, 0x00, 0x00, 0x00, 0xdd, 0xff, 0xff, 0xff, 0x40, 0x01, 0x00, 0x00,
  0xc4, 0x00, 0x00, 0x00, 0x8a, 0xff, 0xff, 0xff, 0x84, 0x00, 0x00, 0x00,
  0x68, 0x00, 0x00, 0x00, 0xee, 0x00, 0x00, 0x00, 0x47, 0xff, 0xff, 0xff,
  0x82, 0xfe, 0xff, 0xff, 0x04, 0x00, 0x00, 0x00, 0xa0, 0x00, 0x00, 0x00,
  0xba, 0xc2, 0x8b, 0x81, 0xe4, 0x50, 0x18, 0xe7, 0xf4, 0x27, 0x30, 0x0e,
  0x08, 0xa9, 0x2a, 0x41, 0x2b, 0xd8, 0x81, 0x47, 0xbd, 0xc7, 0x35, 0xb9,
  0xb6, 0xd5, 0x58, 0x3b, 0xd3, 0x36, 0xfa, 0x4f, 0xd5, 0x07, 0x06, 0x32,
  0x03, 0xec, 0xd8, 0xe4, 0x14, 0xe1, 0xcd, 0xde, 0xef, 0x3a, 0x3f, 0x7f,
  0xc2, 0x09, 0x31, 0x7f, 0x5c, 0xf7, 0xa6, 0x0e, 0x18, 0xe3, 0xd4, 0xf2,
  0x17, 0x4c, 0xf1, 0xce, 0xce, 0xf4, 0x01, 0x0a, 0xfb, 0x09, 0x1b, 0xf1,
  0x0b, 0xfa, 0x08, 0x02, 0x81, 0x0c, 0x03, 0x0c, 0x38, 0xea, 0x7f, 0xf8,
  0x69, 0xf0, 0xdb, 0x0b, 0x16, 0xe3, 0xf5, 0xeb, 0x1f, 0xdc, 0xc9, 0x2e,
  0x30, 0x17, 0xc6, 0x89, 0x92, 0x13, 0x2e, 0xde, 0x0c, 0x04, 0xfe, 0xbe,
  0xa8, 0xff, 0x1d, 0x7f, 0x00, 0xf4, 0x12, 0x22, 0xdf, 0xe8, 0x18, 0xeb,
  0xf3, 0xf0, 0xef, 0x2f, 0x7f, 0x09, 0xf9, 0xca, 0x36, 0x0e, 0xe7, 0xc3,
  0x0d, 0x14, 0xbf, 0x47, 0x10, 0x2b, 0xeb, 0xaa, 0xf1, 0x81, 0x31, 0x8a,
  0xf1, 0xfd, 0x07, 0xf8, 0xe2, 0xf4, 0xfe, 0xfb, 0x1e, 0x05, 0xe6, 0xfc,
  0x29, 0x16, 0x1a, 0x81, 0x2e, 0xff, 0xff, 0xff, 0x04, 0x00, 0x00, 0x00,
  0x28, 0x00, 0x00, 0x00, 0xa1, 0x00, 0x00, 0x00, 0xf9, 0xff, 0xff, 0xff,
  0xdb, 0xff, 0xff, 0xff, 0x55, 0xff, 0xff, 0xff, 0x0a, 0x00, 0x00, 0x00,
  0x8e, 0xff, 0xff, 0xff, 0x7f, 0x00, 0x00, 0x00, 0x02, 0x00, 0x00, 0x00,
  0x38, 0x00, 0x00, 0x00, 0xee, 0xff, 0xff, 0xff, 0x62, 0xff, 0xff, 0xff,
  0x04, 0x00, 0x00, 0x00, 0x08, 0x00, 0x00, 0x00, 0x01, 0x00, 0x00, 0x00,
  0x02, 0x00, 0x00, 0x00, 0x38, 0xf5, 0xff, 0xff, 0x3c, 0xf5, 0xff, 0xff,
  0x0f, 0x00, 0x00, 0x00, 0x4d, 0x4c, 0x49, 0x52, 0x20, 0x43, 0x6f, 0x6e,
  0x76, 0x65, 0x72, 0x74, 0x65, 0x64, 0x2e, 0x00, 0x01, 0x00, 0x00, 0x00,
  0x14, 0x00, 0x00, 0x00, 0x00, 0x00, 0x0e, 0x00, 0x18, 0x00, 0x14, 0x00,
  0x10, 0x00, 0x0c, 0x00, 0x08, 0x00, 0x04, 0x00, 0x0e, 0x00, 0x00, 0x00,
  0x14, 0x00, 0x00, 0x00, 0x1c, 0x00, 0x00, 0x00, 0x70, 0x01, 0x00, 0x00,
  0x74, 0x01, 0x00, 0x00, 0x78, 0x01, 0x00, 0x00, 0x04, 0x00, 0x00, 0x00,
  0x6d, 0x61, 0x69, 0x6e, 0x00, 0x00, 0x00, 0x00, 0x05, 0x00, 0x00, 0x00,
  0x0c, 0x01, 0x00, 0x00, 0xbc, 0x00, 0x00, 0x00, 0x88, 0x00, 0x00, 0x00,
  0x40, 0x00, 0x00, 0x00, 0x04, 0x00, 0x00, 0x00, 0x92, 0xff, 0xff, 0xff,
  0x1c, 0x00, 0x00, 0x00, 0x00, 0x00, 0x00, 0x09, 0x1c, 0x00, 0x00, 0x00,
  0x20, 0x00, 0x00, 0x00, 0x03, 0x00, 0x00, 0x00, 0x00, 0x00, 0x06, 0x00,
  0x08, 0x00, 0x04, 0x00, 0x06, 0x00, 0x00, 0x00, 0x00, 0x00, 0x80, 0x3f,
  0x01, 0x00, 0x00, 0x00, 0x0c, 0x00, 0x00, 0x00, 0x01, 0x00, 0x00, 0x00,
  0x0b, 0x00, 0x00, 0x00, 0xca, 0xff, 0xff, 0xff, 0x14, 0x00, 0x00, 0x00,
  0x00, 0x00, 0x00, 0x08, 0x10, 0x00, 0x00, 0x00, 0x14, 0x00, 0x00, 0x00,
  0x02, 0x00, 0x00, 0x00, 0xf8, 0xf5, 0xff, 0xff, 0x01, 0x00, 0x00, 0x00,
  0x0b, 0x00, 0x00, 0x00, 0x03, 0x00, 0x00, 0x00, 0x0a, 0x00, 0x00, 0x00,
  0x03, 0x00, 0x00, 0x00, 0x02, 0x00, 0x00, 0x00, 0x00, 0x00, 0x0e, 0x00,
  0x18, 0x00, 0x14, 0x00, 0x10, 0x00, 0x0c, 0x00, 0x0b, 0x00, 0x04, 0x00,
  0x0e, 0x00, 0x00, 0x00, 0x14, 0x00, 0x00, 0x00, 0x00, 0x00, 0x00, 0x1b,
  0x10, 0x00, 0x00, 0x00, 0x14, 0x00, 0x00, 0x00, 0x01, 0x00, 0x00, 0x00,
  0x3c, 0xf6, 0xff, 0xff, 0x01, 0x00, 0x00, 0x00, 0x0a, 0x00, 0x00, 0x00,
  0x02, 0x00, 0x00, 0x00, 0x09, 0x00, 0x00, 0x00, 0x01, 0x00, 0x00, 0x00,
  0xc2, 0xff, 0xff, 0xff, 0x10, 0x00, 0x00, 0x00, 0x00, 0x00, 0x00, 0x01,
  0x18, 0x00, 0x00, 0x00, 0x1c, 0x00, 0x00, 0x00, 0xb4, 0xff, 0xff, 0xff,
  0x00, 0x00, 0x00, 0x01, 0x02, 0x00, 0x00, 0x00, 0x02, 0x00, 0x00, 0x00,
  0x01, 0x00, 0x00, 0x00, 0x09, 0x00, 0x00, 0x00, 0x03, 0x00, 0x00, 0x00,
  0x08, 0x00, 0x00, 0x00, 0x05, 0x00, 0x00, 0x00, 0x04, 0x00, 0x00, 0x00,
  0x00, 0x00, 0x0e, 0x00, 0x14, 0x00, 0x00, 0x00, 0x10, 0x00, 0x0c, 0x00,
  0x0b, 0x00, 0x04, 0x00, 0x0e, 0x00, 0x00, 0x00, 0x1c, 0x00, 0x00, 0x00,
  0x00, 0x00, 0x00, 0x01, 0x24, 0x00, 0x00, 0x00, 0x28, 0x00, 0x00, 0x00,
  0x0c, 0x00, 0x10, 0x00, 0x00, 0x00, 0x0c, 0x00, 0x08, 0x00, 0x07, 0x00,
  0x0c, 0x00, 0x00, 0x00, 0x00, 0x00, 0x00, 0x01, 0x02, 0x00, 0x00, 0x00,
  0x02, 0x00, 0x00, 0x00, 0x01, 0x00, 0x00, 0x00, 0x08, 0x00, 0x00, 0x00,
  0x03, 0x00, 0x00, 0x00, 0x00, 0x00, 0x00, 0x00, 0x07, 0x00, 0x00, 0x00,
  0x06, 0x00, 0x00, 0x00, 0x01, 0x00, 0x00, 0x00, 0x0c, 0x00, 0x00, 0x00,
  0x01, 0x00, 0x00, 0x00, 0x00, 0x00, 0x00, 0x00, 0x0d, 0x00, 0x00, 0x00,
  0x40, 0x09, 0x00, 0x00, 0xe4, 0x08, 0x00, 0x00, 0xfc, 0x07, 0x00, 0x00,
  0x28, 0x07, 0x00, 0x00, 0x14, 0x06, 0x00, 0x00, 0xf0, 0x04, 0x00, 0x00,
  0x3c, 0x04, 0x00, 0x00, 0x78, 0x03, 0x00, 0x00, 0xa4, 0x02, 0x00, 0x00,
  0xb0, 0x01, 0x00, 0x00, 0x1c, 0x01, 0x00, 0x00, 0x80, 0x00, 0x00, 0x00,
  0x04, 0x00, 0x00, 0x00, 0x0a, 0xf7, 0xff, 0xff, 0x00, 0x00, 0x00, 0x01,
  0x18, 0x00, 0x00, 0x00, 0x20, 0x00, 0x00, 0x00, 0x3c, 0x00, 0x00, 0x00,
  0x0d, 0x00, 0x00, 0x00, 0x00, 0x00, 0x00, 0x09, 0x50, 0x00, 0x00, 0x00,
  0x02, 0x00, 0x00, 0x00, 0xff, 0xff, 0xff, 0xff, 0x0a, 0x00, 0x00, 0x00,
  0xec, 0xf6, 0xff, 0xff, 0x08, 0x00, 0x00, 0x00, 0x10, 0x00, 0x00, 0x00,
  0x01, 0x00, 0x00, 0x00, 0x80, 0xff, 0xff, 0xff, 0xff, 0xff, 0xff, 0xff,
  0x01, 0x00, 0x00, 0x00, 0x00, 0x00, 0x80, 0x3b, 0x1b, 0x00, 0x00, 0x00,
  0x53, 0x74, 0x61, 0x74, 0x65, 0x66, 0x75, 0x6c, 0x50, 0x61, 0x72, 0x74,
  0x69, 0x74, 0x69, 0x6f, 0x6e, 0x65, 0x64, 0x43, 0x61, 0x6c, 0x6c, 0x5f,
  0x31, 0x3a, 0x30, 0x00, 0x02, 0x00, 0x00, 0x00, 0x01, 0x00, 0x00, 0x00,
  0x0a, 0x00, 0x00, 0x00, 0x82, 0xf7, 0xff, 0xff, 0x00, 0x00, 0x00, 0x01,
  0x18, 0x00, 0x00, 0x00, 0x20, 0x00, 0x00, 0x00, 0x3c, 0x00, 0x00, 0x00,
  0x0c, 0x00, 0x00, 0x00, 0x00, 0x00, 0x00, 0x09, 0x70, 0x00, 0x00, 0x00,
  0x02, 0x00, 0x00, 0x00, 0xff, 0xff, 0xff, 0xff, 0x0a, 0x00, 0x00, 0x00,
  0x64, 0xf7, 0xff, 0xff, 0x08, 0x00, 0x00, 0x00, 0x10, 0x00, 0x00, 0x00,
  0x01, 0x00, 0x00, 0x00, 0x5b, 0x00, 0x00, 0x00, 0x00, 0x00, 0x00, 0x00,
  0x01, 0x00, 0x00, 0x00, 0xc2, 0x68, 0x4f, 0x3e, 0x38, 0x00, 0x00, 0x00,
  0x73, 0x65, 0x71, 0x75, 0x65, 0x6e, 0x74, 0x69, 0x61, 0x6c, 0x5f, 0x31,
  0x2f, 0x64, 0x65, 0x6e, 0x73, 0x65, 0x5f, 0x31, 0x2f, 0x4d, 0x61, 0x74,
  0x4d, 0x75, 0x6c, 0x3b, 0x73, 0x65, 0x71, 0x75, 0x65, 0x6e, 0x74, 0x69,
  0x61, 0x6c, 0x5f, 0x31, 0x2f, 0x64, 0x65, 0x6e, 0x73, 0x65, 0x5f, 0x31,
  0x2f, 0x42, 0x69, 0x61, 0x73, 0x41, 0x64, 0x64, 0x00, 0x00, 0x00, 0x00,
  0x02, 0x00, 0x00, 0x00, 0x01, 0x00, 0x00, 0x00, 0x0a, 0x00, 0x00, 0x00,
  0x1a, 0xf8, 0xff, 0xff, 0x00, 0x00, 0x00, 0x01, 0x18, 0x00, 0x00, 0x00,
  0x20, 0x00, 0x00, 0x00, 0x40, 0x00, 0x00, 0x00, 0x0b, 0x00, 0x00, 0x00,
  0x00, 0x00, 0x00, 0x09, 0x68, 0x00, 0x00, 0x00, 0x02, 0x00, 0x00, 0x00,
  0xff, 0xff, 0xff, 0xff, 0x10, 0x00, 0x00, 0x00, 0xfc, 0xf7, 0xff, 0xff,
  0x08, 0x00, 0x00, 0x00, 0x14, 0x00, 0x00, 0x00, 0x01, 0x00, 0x00, 0x00,
  0x80, 0xff, 0xff, 0xff, 0xff, 0xff, 0xff, 0xff, 0x00, 0x00, 0x00, 0x00,
  0x01, 0x00, 0x00, 0x00, 0x44, 0x65, 0xb9, 0x3d, 0x2c, 0x00, 0x00, 0x00,
  0x73, 0x65, 0x71, 0x75, 0x65, 0x6e, 0x74, 0x69, 0x61, 0x6c, 0x5f, 0x31,
  0x2f, 0x67, 0x6c, 0x6f, 0x62, 0x61, 0x6c, 0x5f, 0x61, 0x76, 0x65, 0x72,
  0x61, 0x67, 0x65, 0x5f, 0x70, 0x6f, 0x6f, 0x6c, 0x69, 0x6e, 0x67, 0x32,
  0x64, 0x5f, 0x31, 0x2f, 0x4d, 0x65, 0x61, 0x6e, 0x00, 0x00, 0x00, 0x00,
  0x02, 0x00, 0x00, 0x00, 0x01, 0x00, 0x00, 0x00, 0x10, 0x00, 0x00, 0x00,
  0xaa, 0xf8, 0xff, 0xff, 0x00, 0x00, 0x00, 0x01, 0x18, 0x00, 0x00, 0x00,
  0x28, 0x00, 0x00, 0x00, 0x44, 0x00, 0x00, 0x00, 0x0a, 0x00, 0x00, 0x00,
  0x00, 0x00, 0x00, 0x09, 0xc0, 0x00, 0x00, 0x00, 0x04, 0x00, 0x00, 0x00,
  0xff, 0xff, 0xff, 0xff, 0x07, 0x00, 0x00, 0x00, 0x07, 0x00, 0x00, 0x00,
  0x10, 0x00, 0x00, 0x00, 0x94, 0xf8, 0xff, 0xff, 0x08, 0x00, 0x00, 0x00,
  0x10, 0x00, 0x00, 0x00, 0x01, 0x00, 0x00, 0x00, 0x80, 0xff, 0xff, 0xff,
  0xff, 0xff, 0xff, 0xff, 0x01, 0x00, 0x00, 0x00, 0x5e, 0x5b, 0x09, 0x3f,
  0x80, 0x00, 0x00, 0x00, 0x73, 0x65, 0x71, 0x75, 0x65, 0x6e, 0x74, 0x69,
  0x61, 0x6c, 0x5f, 0x31, 0x2f, 0x63, 0x6f, 0x6e, 0x76, 0x32, 0x64, 0x5f,
  0x31, 0x5f, 0x32, 0x2f, 0x52, 0x65, 0x6c, 0x75, 0x3b, 0x73, 0x65, 0x71,
  0x75, 0x65, 0x6e, 0x74, 0x69, 0x61, 0x6c, 0x5f, 0x31, 0x2f, 0x63, 0x6f,
  0x6e, 0x76, 0x32, 0x64, 0x5f, 0x31, 0x5f, 0x32, 0x2f, 0x42, 0x69, 0x61,
  0x73, 0x41, 0x64, 0x64, 0x3b, 0x73, 0x65, 0x71, 0x75, 0x65, 0x6e, 0x74,
  0x69, 0x61, 0x6c, 0x5f, 0x31, 0x2f, 0x63, 0x6f, 0x6e, 0x76, 0x32, 0x64,
  0x5f, 0x31, 0x5f, 0x32, 0x2f, 0x63, 0x6f, 0x6e, 0x76, 0x6f, 0x6c, 0x75,
  0x74, 0x69, 0x6f, 0x6e, 0x3b, 0x73, 0x65, 0x71, 0x75, 0x65, 0x6e, 0x74,
  0x69, 0x61, 0x6c, 0x5f, 0x31, 0x2f, 0x63, 0x6f, 0x6e, 0x76, 0x32, 0x64,
  0x5f, 0x31, 0x5f, 0x32, 0x2f, 0x53, 0x71, 0x75, 0x65, 0x65, 0x7a, 0x65,
  0x00, 0x00, 0x00, 0x00, 0x04, 0x00, 0x00, 0x00, 0x01, 0x00, 0x00, 0x00,
  0x07, 0x00, 0x00, 0x00, 0x07, 0x00, 0x00, 0x00, 0x10, 0x00, 0x00, 0x00,
  0x9a, 0xf9, 0xff, 0xff, 0x00, 0x00, 0x00, 0x01, 0x18, 0x00, 0x00, 0x00,
  0x28, 0x00, 0x00, 0x00, 0x48, 0x00, 0x00, 0x00, 0x09, 0x00, 0x00, 0x00,
  0x00, 0x00, 0x00, 0x09, 0xa0, 0x00, 0x00, 0x00, 0x04, 0x00, 0x00, 0x00,
  0xff, 0xff, 0xff, 0xff, 0x0e, 0x00, 0x00, 0x00, 0x0e, 0x00, 0x00, 0x00,
  0x08, 0x00, 0x00, 0x00, 0x84, 0xf9, 0xff, 0xff, 0x08, 0x00, 0x00, 0x00,
  0x14, 0x00, 0x00, 0x00, 0x01, 0x00, 0x00, 0x00, 0x80, 0xff, 0xff, 0xff,
  0xff, 0xff, 0xff, 0xff, 0x00, 0x00, 0x00, 0x00, 0x01, 0x00, 0x00, 0x00,
  0xc3, 0x89, 0xa1, 0x3d, 0x5c, 0x00, 0x00, 0x00, 0x73, 0x65, 0x71, 0x75,
  0x65, 0x6e, 0x74, 0x69, 0x61, 0x6c, 0x5f, 0x31, 0x2f, 0x63, 0x6f, 0x6e,
  0x76, 0x32, 0x64, 0x5f, 0x31, 0x2f, 0x52, 0x65, 0x6c, 0x75, 0x3b, 0x73,
  0x65, 0x71, 0x75, 0x65, 0x6e, 0x74, 0x69, 0x61, 0x6c, 0x5f, 0x31, 0x2f,
  0x63, 0x6f, 0x6e, 0x76, 0x32, 0x64, 0x5f, 0x31, 0x2f, 0x42, 0x69, 0x61,
  0x73, 0x41, 0x64, 0x64, 0x3b, 0x73, 0x65, 0x71, 0x75, 0x65, 0x6e, 0x74,
  0x69, 0x61, 0x6c, 0x5f, 0x31, 0x2f, 0x63, 0x6f, 0x6e, 0x76, 0x32, 0x64,
  0x5f, 0x31, 0x2f, 0x63, 0x6f, 0x6e, 0x76, 0x6f, 0x6c, 0x75, 0x74, 0x69,
  0x6f, 0x6e, 0x3b, 0x31, 0x00, 0x00, 0x00, 0x00, 0x04, 0x00, 0x00, 0x00,
  0x01, 0x00, 0x00, 0x00, 0x0e, 0x00, 0x00, 0x00, 0x0e, 0x00, 0x00, 0x00,
  0x08, 0x00, 0x00, 0x00, 0xc2, 0xfa, 0xff, 0xff, 0x00, 0x00, 0x00, 0x01,
  0x14, 0x00, 0x00, 0x00, 0x88, 0x00, 0x00, 0x00, 0x08, 0x00, 0x00, 0x00,
  0x00, 0x00, 0x00, 0x09, 0x94, 0x00, 0x00, 0x00, 0x3c, 0xfa, 0xff, 0xff,
  0x08, 0x00, 0x00, 0x00, 0x4c, 0x00, 0x00, 0x00, 0x08, 0x00, 0x00, 0x00,
  0x00, 0x00, 0x00, 0x00, 0x00, 0x00, 0x00, 0x00, 0x00, 0x00, 0x00, 0x00,
  0x00, 0x00, 0x00, 0x00, 0x00, 0x00, 0x00, 0x00, 0x00, 0x00, 0x00, 0x00,
  0x00, 0x00, 0x00, 0x00, 0x00, 0x00, 0x00, 0x00, 0x00, 0x00, 0x00, 0x00,
  0x00, 0x00, 0x00, 0x00, 0x00, 0x00, 0x00, 0x00, 0x00, 0x00, 0x00, 0x00,
  0x00, 0x00, 0x00, 0x00, 0x00, 0x00, 0x00, 0x00, 0x00, 0x00, 0x00, 0x00,
  0x00, 0x00, 0x00, 0x00, 0x00, 0x00, 0x00, 0x00, 0x08, 0x00, 0x00, 0x00,
  0xde, 0x4c, 0xaa, 0x3c, 0x6f, 0xb9, 0xfe, 0x3c, 0x4f, 0x62, 0xa8, 0x3c,
  0x8b, 0xf3, 0xf4, 0x3c, 0xfd, 0x56, 0x31, 0x3c, 0xd0, 0x38, 0xbf, 0x3c,
  0x79, 0x62, 0x00, 0x3d, 0x38, 0x8e, 0xd9, 0x3c, 0x12, 0x00, 0x00, 0x00,
  0x74, 0x66, 0x6c, 0x2e, 0x70, 0x73, 0x65, 0x75, 0x64, 0x6f, 0x5f, 0x71,
  0x63, 0x6f, 0x6e, 0x73, 0x74, 0x35, 0x00, 0x00, 0x04, 0x00, 0x00, 0x00,
  0x08, 0x00, 0x00, 0x00, 0x03, 0x00, 0x00, 0x00, 0x03, 0x00, 0x00, 0x00,
  0x01, 0x00, 0x00, 0x00, 0x82, 0xfb, 0xff, 0xff, 0x00, 0x00, 0x00, 0x01,
  0x14, 0x00, 0x00, 0x00, 0x84, 0x00, 0x00, 0x00, 0x07, 0x00, 0x00, 0x00,
  0x00, 0x00, 0x00, 0x02, 0x90, 0x00, 0x00, 0x00, 0xfc, 0xfa, 0xff, 0xff,
  0x08, 0x00, 0x00, 0x00, 0x48, 0x00, 0x00, 0x00, 0x08, 0x00, 0x00, 0x00,
  0x00, 0x00, 0x00, 0x00, 0x00, 0x00, 0x00, 0x00, 0x00, 0x00, 0x00, 0x00,
  0x00, 0x00, 0x00, 0x00, 0x00, 0x00, 0x00, 0x00, 0x00, 0x00, 0x00, 0x00,
  0x00, 0x00, 0x00, 0x00, 0x00, 0x00, 0x00, 0x00, 0x00, 0x00, 0x00, 0x00,
  0x00, 0x00, 0x00, 0x00, 0x00, 0x00, 0x00, 0x00, 0x00, 0x00, 0x00, 0x00,
  0x00, 0x00, 0x00, 0x00, 0x00, 0x00, 0x00, 0x00, 0x00, 0x00, 0x00, 0x00,
  0x00, 0x00, 0x00, 0x00, 0x08, 0x00, 0x00, 0x00, 0xd6, 0xf7, 0xaa, 0x38,
  0x29, 0xb9, 0xff, 0x38, 0x5b, 0x0b, 0xa9, 0x38, 0x75, 0xe9, 0xf5, 0x38,
  0x07, 0x09, 0x32, 0x38, 0xca, 0xf8, 0xbf, 0x38, 0x5d, 0xe3, 0x00, 0x39,
  0xa1, 0x68, 0xda, 0x38, 0x12, 0x00, 0x00, 0x00, 0x74, 0x66, 0x6c, 0x2e,
  0x70, 0x73, 0x65, 0x75, 0x64, 0x6f, 0x5f, 0x71, 0x63, 0x6f, 0x6e, 0x73,
  0x74, 0x34, 0x00, 0x00, 0x01, 0x00, 0x00, 0x00, 0x08, 0x00, 0x00, 0x00,
  0x32, 0xfc, 0xff, 0xff, 0x00, 0x00, 0x00, 0x01, 0x14, 0x00, 0x00, 0x00,
  0xe8, 0x00, 0x00, 0x00, 0x06, 0x00, 0x00, 0x00, 0x00, 0x00, 0x00, 0x09,
  0xf4, 0x00, 0x00, 0x00, 0xac, 0xfb, 0xff, 0xff, 0x08, 0x00, 0x00, 0x00,
  0x8c, 0x00, 0x00, 0x00, 0x10, 0x00, 0x00, 0x00, 0x00, 0x00, 0x00, 0x00,
  0x00, 0x00, 0x00, 0x00, 0x00, 0x00, 0x00, 0x00, 0x00, 0x00, 0x00, 0x00,
  0x00, 0x00, 0x00, 0x00, 0x00, 0x00, 0x00, 0x00, 0x00, 0x00, 0x00, 0x00,
  0x00, 0x00, 0x00, 0x00, 0x00, 0x00, 0x00, 0x00, 0x00, 0x00, 0x00, 0x00,
  0x00, 0x00, 0x00, 0x00, 0x00, 0x00, 0x00, 0x00, 0x00, 0x00, 0x00, 0x00,
  0x00, 0x00, 0x00, 0x00, 0x00, 0x00, 0x00, 0x00, 0x00, 0x00, 0x00, 0x00,
  0x00, 0x00, 0x00, 0x00, 0x00, 0x00, 0x00, 0x00, 0x00, 0x00, 0x00, 0x00,
  0x00, 0x00, 0x00, 0x00, 0x00, 0x00, 0x00, 0x00, 0x00, 0x00, 0x00, 0x00,
  0x00, 0x00, 0x00, 0x00, 0x00, 0x00, 0x00, 0x00, 0x00, 0x00, 0x00, 0x00,
  0x00, 0x00, 0x00, 0x00, 0x00, 0x00, 0x00, 0x00, 0x00, 0x00, 0x00, 0x00,
  0x00, 0x00, 0x00, 0x00, 0x00, 0x00, 0x00, 0x00, 0x00, 0x00, 0x00, 0x00,
  0x00, 0x00, 0x00, 0x00, 0x00, 0x00, 0x00, 0x00, 0x10, 0x00, 0x00, 0x00,
  0xf5, 0xdc, 0xec, 0x3c, 0x9c, 0x39, 0x3d, 0x3c, 0x86, 0x84, 0x8f, 0x3c,
  0x1c, 0xd1, 0xf5, 0x3c, 0x5b, 0xdc, 0x64, 0x3c, 0x51, 0xaa, 0x1f, 0x3c,
  0x87, 0xb7, 0x9c, 0x3c, 0x43, 0x15, 0x85, 0x3c, 0x9a, 0x53, 0x32, 0x3c,
  0xff, 0xae, 0x50, 0x3c, 0x43, 0x93, 0x0c, 0x3c, 0x79, 0x7d, 0x53, 0x3c,
  0xe6, 0xbb, 0x24, 0x3d, 0x52, 0x3e, 0x92, 0x3c, 0x31, 0xc2, 0x14, 0x3c,
  0x55, 0x3f, 0x01, 0x3d, 0x12, 0x00, 0x00, 0x00, 0x74, 0x66, 0x6c, 0x2e,
  0x70, 0x73, 0x65, 0x75, 0x64, 0x6f, 0x5f, 0x71, 0x63, 0x6f, 0x6e, 0x73,
  0x74, 0x33, 0x00, 0x00, 0x04, 0x00, 0x00, 0x00, 0x10, 0x00, 0x00, 0x00,
  0x03, 0x00, 0x00, 0x00, 0x03, 0x00, 0x00, 0x00, 0x08, 0x00, 0x00, 0x00,
  0x52, 0xfd, 0xff, 0xff, 0x00, 0x00, 0x00, 0x01, 0x14, 0x00, 0x00, 0x00,
  0xe4, 0x00, 0x00, 0x00, 0x05, 0x00, 0x00, 0x00, 0x00, 0x00, 0x00, 0x02,
  0xf0, 0x00, 0x00, 0x00, 0xcc, 0xfc, 0xff, 0xff, 0x08, 0x00, 0x00, 0x00,
  0x88, 0x00, 0x00, 0x00, 0x10, 0x00, 0x00, 0x00, 0x00, 0x00, 0x00, 0x00,
  0x00, 0x00, 0x00, 0x00, 0x00, 0x00, 0x00, 0x00, 0x00, 0x00, 0x00, 0x00,
  0x00, 0x00, 0x00, 0x00, 0x00, 0x00, 0x00, 0x00, 0x00, 0x00, 0x00, 0x00,
  0x00, 0x00, 0x00, 0x00, 0x00, 0x00, 0x00, 0x00, 0x00, 0x00, 0x00, 0x00,
  0x00, 0x00, 0x00, 0x00, 0x00, 0x00, 0x00, 0x00, 0x00, 0x00, 0x00, 0x00,
  0x00, 0x00, 0x00, 0x00, 0x00, 0x00, 0x00, 0x00, 0x00, 0x00, 0x00, 0x00,
  0x00, 0x00, 0x00, 0x00, 0x00, 0x00, 0x00, 0x00, 0x00, 0x00, 0x00, 0x00,
  0x00, 0x00, 0x00, 0x00, 0x00, 0x00, 0x00, 0x00, 0x00, 0x00, 0x00, 0x00,
  0x00, 0x00, 0x00, 0x00, 0x00, 0x00, 0x00, 0x00, 0x00, 0x00, 0x00, 0x00,
  0x00, 0x00, 0x00, 0x00, 0x00, 0x00, 0x00, 0x00, 0x00, 0x00, 0x00, 0x00,
  0x00, 0x00, 0x00, 0x00, 0x00, 0x00, 0x00, 0x00, 0x00, 0x00, 0x00, 0x00,
  0x00, 0x00, 0x00, 0x00, 0x10, 0x00, 0x00, 0x00, 0x6d, 0x76, 0x15, 0x3b,
  0x1e, 0xce, 0x6e, 0x3a, 0x27, 0x1f, 0xb5, 0x3a, 0xcb, 0x1c, 0x1b, 0x3b,
  0xbd, 0x69, 0x90, 0x3a, 0x11, 0x80, 0x49, 0x3a, 0x83, 0xc7, 0xc5, 0x3a,
  0xfa, 0xf3, 0xa7, 0x3a, 0x15, 0x0d, 0x61, 0x3a, 0x5b, 0xae, 0x83, 0x3a,
  0x86, 0x68, 0x31, 0x3a, 0xb8, 0x73, 0x85, 0x3a, 0xa3, 0xe5, 0x4f, 0x3b,
  0xc9, 0x8f, 0xb8, 0x3a, 0x5c, 0xbc, 0x3b, 0x3a, 0xc4, 0x1c, 0x23, 0x3b,
  0x12, 0x00, 0x00, 0x00, 0x74, 0x66, 0x6c, 0x2e, 0x70, 0x73, 0x65, 0x75,
  0x64, 0x6f, 0x5f, 0x71, 0x63, 0x6f, 0x6e, 0x73, 0x74, 0x32, 0x00, 0x00,
  0x01, 0x00, 0x00, 0x00, 0x10, 0x00, 0x00, 0x00, 0x62, 0xfe, 0xff, 0xff,
  0x00, 0x00, 0x00, 0x01, 0x14, 0x00, 0x00, 0x00, 0xa0, 0x00, 0x00, 0x00,
  0x04, 0x00, 0x00, 0x00, 0x00, 0x00, 0x00, 0x09, 0xac, 0x00, 0x00, 0x00,
  0xdc, 0xfd, 0xff, 0xff, 0x08, 0x00, 0x00, 0x00, 0x5c, 0x00, 0x00, 0x00,
  0x0a, 0x00, 0x00, 0x00, 0x00, 0x00, 0x00, 0x00, 0x00, 0x00, 0x00, 0x00,
  0x00, 0x00, 0x00, 0x00, 0x00, 0x00, 0x00, 0x00, 0x00, 0x00, 0x00, 0x00,
  0x00, 0x00, 0x00, 0x00, 0x00, 0x00, 0x00, 0x00, 0x00, 0x00, 0x00, 0x00,
  0x00, 0x00, 0x00, 0x00, 0x00, 0x00, 0x00, 0x00, 0x00, 0x00, 0x00, 0x00,
  0x00, 0x00, 0x00, 0x00, 0x00, 0x00, 0x00, 0x00, 0x00, 0x00, 0x00, 0x00,
  0x00, 0x00, 0x00, 0x00, 0x00, 0x00, 0x00, 0x00, 0x00, 0x00, 0x00, 0x00,
  0x00, 0x00, 0x00, 0x00, 0x00, 0x00, 0x00, 0x00, 0x00, 0x00, 0x00, 0x00,
  0x00, 0x00, 0x00, 0x00, 0x0a, 0x00, 0x00, 0x00, 0x68, 0x44, 0x2b, 0x3c,
  0x34, 0x46, 0x5e, 0x3c, 0xff, 0xbf, 0x20, 0x3c, 0x1f, 0x05, 0x50, 0x3c,
  0xae, 0xeb, 0xc0, 0x3c, 0xb8, 0xc9, 0x50, 0x3c, 0xd4, 0xa1, 0x43, 0x3c,
  0xe3, 0x74, 0xbb, 0x3c, 0xac, 0xc4, 0x37, 0x3c, 0x8e, 0x17, 0x91, 0x3c,
  0x12, 0x00, 0x00, 0x00, 0x74, 0x66, 0x6c, 0x2e, 0x70, 0x73, 0x65, 0x75,
  0x64, 0x6f, 0x5f, 0x71, 0x63, 0x6f, 0x6e, 0x73, 0x74, 0x31, 0x00, 0x00,
  0x02, 0x00, 0x00, 0x00, 0x0a, 0x00, 0x00, 0x00, 0x10, 0x00, 0x00, 0x00,
  0x32, 0xff, 0xff, 0xff, 0x00, 0x00, 0x00, 0x01, 0x14, 0x00, 0x00, 0x00,
  0xa0, 0x00, 0x00, 0x00, 0x03, 0x00, 0x00, 0x00, 0x00, 0x00, 0x00, 0x02,
  0xac, 0x00, 0x00, 0x00, 0xac, 0xfe, 0xff, 0xff, 0x08, 0x00, 0x00, 0x00,
  0x5c, 0x00, 0x00, 0x00, 0x0a, 0x00, 0x00, 0x00, 0x00, 0x00, 0x00, 0x00,
  0x00, 0x00, 0x00, 0x00, 0x00, 0x00, 0x00, 0x00, 0x00, 0x00, 0x00, 0x00,
  0x00, 0x00, 0x00, 0x00, 0x00, 0x00, 0x00, 0x00, 0x00, 0x00, 0x00, 0x00,
  0x00, 0x00, 0x00, 0x00, 0x00, 0x00, 0x00, 0x00, 0x00, 0x00, 0x00, 0x00,
  0x00, 0x00, 0x00, 0x00, 0x00, 0x00, 0x00, 0x00, 0x00, 0x00, 0x00, 0x00,
  0x00, 0x00, 0x00, 0x00, 0x00, 0x00, 0x00, 0x00, 0x00, 0x00, 0x00, 0x00,
  0x00, 0x00, 0x00, 0x00, 0x00, 0x00, 0x00, 0x00, 0x00, 0x00, 0x00, 0x00,
  0x00, 0x00, 0x00, 0x00, 0x00, 0x00, 0x00, 0x00, 0x0a, 0x00, 0x00, 0x00,
  0x5d, 0x10, 0x78, 0x3a, 0xa8, 0xf8, 0xa0, 0x3a, 0xab, 0xd4, 0x68, 0x3a,
  0xfd, 0xa5, 0x96, 0x3a, 0xa1, 0xb6, 0x0b, 0x3b, 0x5d, 0x34, 0x97, 0x3a,
  0x55, 0xad, 0x8d, 0x3a, 0x9f, 0xc1, 0x07, 0x3b, 0xd2, 0x15, 0x85, 0x3a,
  0xd5, 0x26, 0xd2, 0x3a, 0x11, 0x00, 0x00, 0x00, 0x74, 0x66, 0x6c, 0x2e,
  0x70, 0x73, 0x65, 0x75, 0x64, 0x6f, 0x5f, 0x71, 0x63, 0x6f, 0x6e, 0x73,
  0x74, 0x00, 0x00, 0x00, 0x01, 0x00, 0x00, 0x00, 0x0a, 0x00, 0x00, 0x00,
  0x00, 0x00, 0x16, 0x00, 0x1c, 0x00, 0x18, 0x00, 0x17, 0x00, 0x10, 0x00,
  0x0c, 0x00, 0x08, 0x00, 0x00, 0x00, 0x00, 0x00, 0x00, 0x00, 0x07, 0x00,
  0x16, 0x00, 0x00, 0x00, 0x00, 0x00, 0x00, 0x01, 0x18, 0x00, 0x00, 0x00,
  0x18, 0x00, 0x00, 0x00, 0x02, 0x00, 0x00, 0x00, 0x00, 0x00, 0x00, 0x02,
  0x20, 0x00, 0x00, 0x00, 0x04, 0x00, 0x04, 0x00, 0x04, 0x00, 0x00, 0x00,
  0x0e, 0x00, 0x00, 0x00, 0x61, 0x72, 0x69, 0x74, 0x68, 0x2e, 0x63, 0x6f,
  0x6e, 0x73, 0x74, 0x61, 0x6e, 0x74, 0x00, 0x00, 0x01, 0x00, 0x00, 0x00,
  0x02, 0x00, 0x00, 0x00, 0x00, 0x00, 0x16, 0x00, 0x20, 0x00, 0x1c, 0x00,
  0x1b, 0x00, 0x14, 0x00, 0x10, 0x00, 0x0c, 0x00, 0x00, 0x00, 0x00, 0x00,
  0x08, 0x00, 0x07, 0x00, 0x16, 0x00, 0x00, 0x00, 0x00, 0x00, 0x00, 0x01,
  0x18, 0x00, 0x00, 0x00, 0x34, 0x00, 0x00, 0x00, 0x50, 0x00, 0x00, 0x00,
  0x01, 0x00, 0x00, 0x00, 0x00, 0x00, 0x00, 0x09, 0x68, 0x00, 0x00, 0x00,
  0x04, 0x00, 0x00, 0x00, 0xff, 0xff, 0xff, 0xff, 0x1c, 0x00, 0x00, 0x00,
  0x1c, 0x00, 0x00, 0x00, 0x01, 0x00, 0x00, 0x00, 0x0c, 0x00, 0x0c, 0x00,
  0x00, 0x00, 0x00, 0x00, 0x08, 0x00, 0x04, 0x00, 0x0c, 0x00, 0x00, 0x00,
  0x08, 0x00, 0x00, 0x00, 0x10, 0x00, 0x00, 0x00, 0x01, 0x00, 0x00, 0x00,
  0x80, 0xff, 0xff, 0xff, 0xff, 0xff, 0xff, 0xff, 0x01, 0x00, 0x00, 0x00,
  0x81, 0x80, 0x80, 0x3b, 0x1e, 0x00, 0x00, 0x00, 0x73, 0x65, 0x72, 0x76,
  0x69, 0x6e, 0x67, 0x5f, 0x64, 0x65, 0x66, 0x61, 0x75, 0x6c, 0x74, 0x5f,
  0x6b, 0x65, 0x72, 0x61, 0x73, 0x5f, 0x74, 0x65, 0x6e, 0x73, 0x6f, 0x72,
  0x3a, 0x30, 0x00, 0x00, 0x04, 0x00, 0x00, 0x00, 0x01, 0x00, 0x00, 0x00,
  0x1c, 0x00, 0x00, 0x00, 0x1c, 0x00, 0x00, 0x00, 0x01, 0x00, 0x00, 0x00,
  0x04, 0x00, 0x00, 0x00, 0x4c, 0x00, 0x00, 0x00, 0x2c, 0x00, 0x00, 0x00,
  0x18, 0x00, 0x00, 0x00, 0x04, 0x00, 0x00, 0x00, 0xd0, 0xff, 0xff, 0xff,
  0x19, 0x00, 0x00, 0x00, 0x02, 0x00, 0x00, 0x00, 0x00, 0x00, 0x00, 0x19,
  0xe0, 0xff, 0xff, 0xff, 0x09, 0x00, 0x00, 0x00, 0x04, 0x00, 0x00, 0x00,
  0x00, 0x00, 0x00, 0x09, 0xf0, 0xff, 0xff, 0xff, 0x28, 0x00, 0x00, 0x00,
  0x02, 0x00, 0x00, 0x00, 0x00, 0x00, 0x00, 0x28, 0x0c, 0x00, 0x10, 0x00,
  0x0f, 0x00, 0x00, 0x00, 0x08, 0x00, 0x04, 0x00, 0x0c, 0x00, 0x00, 0x00,
  0x03, 0x00, 0x00, 0x00, 0x03, 0x00, 0x00, 0x00, 0x00, 0x00, 0x00, 0x03,
};
const unsigned int mnist_cnn_int8_model_len = 5256;
